[PAD]
[UNK]
[START]
[END]
!
"
#
$
%
&
'
(
)
*
+
,
-
.
/
0
1
2
3
4
5
6
7
8
9
:
;
<
=
>
?
@
[
\
]
^
_
`
a
b
c
d
e
f
g
h
i
j
k
l
m
n
o
p
q
r
s
t
u
v
w
x
y
z
{
|
}
~
¡
¬
°
¶
·
¿
×
÷
ø
đ
ɢ
ɪ
ɴ
ʀ
ʔ
ʕ
ʖ
ʘ
ʙ
ʜ
ʟ
˄
ˇ
ˈ
ˉ
ˊ
ˋ
ι
ο
σ
ω
а
б
в
г
д
е
ж
з
и
к
л
м
н
о
п
р
с
т
у
ф
х
ц
ч
ш
ы
ь
э
ю
я
و
٩
۶
இ
ಥ
ก
ค
ฅ
ง
ด
น
พ
ร
ว
ส
ะ
า
เ
๑
๓
༼
༽
ᄀ
ᄁ
ᄂ
ᄃ
ᄄ
ᄅ
ᄆ
ᄇ
ᄈ
ᄉ
ᄊ
ᄋ
ᄌ
ᄍ
ᄎ
ᄏ
ᄐ
ᄑ
ᄒ
ᅡ
ᅢ
ᅣ
ᅥ
ᅦ
ᅧ
ᅨ
ᅩ
ᅪ
ᅫ
ᅬ
ᅭ
ᅮ
ᅯ
ᅱ
ᅲ
ᅳ
ᅴ
ᅵ
ᆨ
ᆩ
ᆫ
ᆮ
ᆯ
ᆰ
ᆷ
ᆸ
ᆹ
ᆺ
ᆻ
ᆼ
ᆽ
ᇀ
ᇁ
ᇂ
ᐪ
ᴀ
ᴄ
ᴅ
ᴇ
ᴋ
ᴍ
ᴏ
ᴖ
ᴗ
ᴛ
ᴜ
ᴩ
–
—
‘
’
“
”
„
†
•
 
※
‿
€
⃣
←
→
↓
↗
↘
↳
∀
∇
∩
⊃
⋅
⌛
⌯
⏳
┌
└
┗
├
┣
╥
╯
╰
╹
▶
▽
○
◍
●
◕
◜
◝
◡
◦
☀
☁
☄
☆
☉
☔
☕
☝
☞
☠
☮
☹
☺
☻
♀
♂
♄
♉
♊
♍
♑
♡
♥
♪
♫
♰
⚓
⚠
⚡
⚫
⛵
✅
✊
✋
✌
✖
✧
✨
✿
❀
❁
❄
❇
❓
❗
❛
❤
⬆
⬇
⭐
⸒
、
。
〃
々
〇
〉
「
」
【
】
〒
〜
ぁ
あ
い
う
ぇ
え
お
か
き
く
け
こ
さ
し
す
せ
そ
た
ち
っ
つ
て
と
な
に
ね
の
は
ひ
ふ
へ
ほ
ま
み
む
め
も
ゃ
や
ゅ
ゆ
ょ
よ
ら
り
る
れ
ろ
わ
を
ん
ァ
ア
ィ
イ
ウ
ェ
エ
オ
カ
キ
ク
ケ
コ
サ
シ
ス
セ
ソ
タ
チ
ッ
ツ
テ
ト
ナ
ニ
ネ
ノ
ハ
ヒ
フ
ヘ
ホ
マ
ミ
ム
メ
モ
ャ
ヤ
ュ
ョ
ラ
リ
ル
レ
ロ
ヮ
ワ
ン
・
ー
ヽ
一
万
丈
上
下
不
与
中
主
了
事
二
人
今
仕
他
付
以
会
伝
体
何
作
你
使
來
係
信
個
優
元
先
光
入
全
共
凸
出
分
切
初
利
到
力
加
助
勉
動
化
千
参
反
取
受
可
合
同
向
君
告
周
味
唄
回
団
囲
在
地
場
境
増
声
変
外
多
大
天
夫
失
奏
好
姉
始
婆
子
守
定
実
対
射
專
小
展
差
己
帯
帰
常
年
広
底
度
引
張
強
形
影
後
心
必
応
思
性
悪
情
想
意
愛
感
成
我
截
所
手
才
持
指
掘
教
数
文
新
日
星
時
景
晴
曲
最
月
有
服
望
朝
木
未
本
来
果
根
格
棍
業
楽
構
様
機
次
欲
歌
正
残
気
求
江
注
活
満
演
澤
火
炸
点
無
然
物
特
狀
独
現
理
環
生
用
由
町
疲
癒
発
發
白
的
皮
目
直
眠
知
礼
社
神
私
立
笑
箱
素
細
終
組
結
絵
織
繰
美
考
耳
聞
聴
能
自
良
色
花
苦
英
草
菜
葉
行
衣
表
装
要
見
覚
観
解
言
訳
話
語
謝
識
議
負
財
資
質
起
越
身
込
近
返
這
通
進
過
達
違
適
部
配
野
量
金
長
開
間
関
限
隠
集
雙
難
雰
面
音
響
頑
香
験
驚
高
髪
齎
ꈍ
꒳
ꚛ
ꜰ
ꜱ
￼
🅰
🅱
🅲
🅴
🅸
🅼
🅽
🅾
🅿
🆁
🆂
🆃
🆄
🇪
🇸
🌁
🌅
🌈
🌝
🌟
🌫
🌱
🌲
🌳
🌴
🌸
🌹
🌺
🌻
🌼
🌿
🍀
🍁
🍂
🍃
🍄
🍊
🍋
🍌
🍏
🍔
🍪
🍵
🍷
🎀
🎂
🎃
🎄
🎆
🎇
🎈
🎉
🎊
🎤
🎩
🎮
🎵
🎶
🎷
🎸
🎹
🎺
🎻
🎼
🏃
🏆
🏭
🏵
🏻
🏼
🏽
🏾
🏿
🐀
🐈
🐌
🐍
🐏
🐐
🐑
🐒
🐗
🐘
🐝
🐟
🐢
🐮
🐰
🐱
🐲
🐴
🐸
🐺
🐾
👀
👁
👂
👄
👆
👈
👉
👋
👌
👍
👏
👑
👨
👻
👽
💀
💃
💋
💎
💐
💓
💔
💕
💖
💗
💘
💙
💚
💛
💜
💝
💞
💤
💥
💦
💨
💪
💫
💯
💰
📈
📱
📷
📸
🔥
🔧
🔨
🔫
🔱
🕊
🕷
🖤
🗡
🗣
🗨
🗿
😀
😁
😂
😃
😄
😅
😆
😇
😈
😉
😊
😋
😌
😍
😎
😏
😐
😑
😔
😖
😘
😞
😟
😡
😢
😣
😤
😥
😦
😨
😩
😪
😫
😬
😭
😮
😰
😱
😲
😳
😴
😵
😶
😷
😸
😹
😺
😻
😼
🙂
🙃
🙇
🙈
🙌
🙏
🚗
🛐
🟠
🤌
🤍
🤎
🤏
🤓
🤔
🤗
🤘
🤙
🤝
🤟
🤡
🤢
🤣
🤤
🤧
🤨
🤩
🤪
🤬
🤭
🤷
🥁
🥂
🥕
🥥
🥦
🥪
🥰
🥱
🥲
🥳
🥴
🥵
🥶
🥹
🥺
🦀
🦈
🦉
🦌
🦍
🦒
🦖
🧐
🧠
🧡
🪕
🪗
🪘
🪳
🪶
🫡
🫢
🫵
🫶
the
to
you
and
fauna
for
it
of
is
this
stream
was
that
in
x000d
so
with
##s
on
your
but
my
thanks
thank
be
have
me
can
really
like
fun
all
as
she
game
just
are
good
asmr
time
see
we
at
love
more
one
her
not
what
great
if
get
always
when
much
up
from
cute
how
some
too
about
very
out
also
an
now
##ing
do
well
back
will
they
re
hope
even
don
there
nice
would
today
got
##ed
no
streams
or
has
comfy
know
ve
been
had
new
play
happy
think
glad
us
by
again
looking
were
did
forward
nature
day
amazing
ll
##d
best
watch
another
voice
wait
make
lot
being
only
first
kirin
way
next
never
still
after
here
into
these
work
minecraft
go
congrats
could
them
made
watching
start
end
getting
such
##y
10
song
while
because
who
feel
lol
oh
playing
though
its
##ly
better
collab
right
take
saplings
want
going
off
am
say
than
rest
sure
other
little
tree
why
games
then
##er
##e
didn
mumei
something
long
pretty
bit
need
many
ara
00
ever
over
##t
most
actually
super
##n
people
every
before
part
3d
definitely
seeing
where
those
ear
two
20
##o
hard
look
sleep
man
things
hear
since
thing
let
##a
our
favorite
future
30
funny
already
last
bae
real
their
mother
##r
everyone
through
gonna
makes
maybe
should
perfect
12
doing
chat
everything
15
kronii
##es
50
job
hitman
skyrim
40
down
world
11
horror
able
live
sounds
does
enjoy
might
he
keep
looks
any
thought
welcome
come
which
wonderful
excited
relaxing
together
01
story
birthday
big
having
##i
around
missed
bad
finally
16
en
life
especially
soon
video
believe
loved
18
hololive
said
put
please
same
year
listen
someone
vod
whole
13
47
14
making
mama
25
week
tier
26
congratulations
22
35
listening
45
##m
yes
36
17
29
help
hours
heart
sapling
32
24
both
try
truly
27
give
55
once
luck
music
enjoyed
im
02
done
21
28
ending
cat
night
tomorrow
42
ghost
38
23
33
girl
37
##l
girls
short
19
49
03
gaming
care
34
experience
##h
beautiful
doesn
56
during
57
kind
times
use
31
46
blessed
cool
04
farm
44
streaming
played
39
god
43
different
41
05
full
may
far
58
sorry
years
faendal
##in
sound
08
absolutely
06
09
52
few
probably
reading
stuff
07
mommy
moment
coming
enough
find
interesting
gura
51
53
54
stop
yandere
blowing
faunya
run
asleep
pokemon
progress
left
talk
48
##k
guys
quite
sweet
least
seen
almost
went
##p
myself
remember
adorable
ceres
wasn
guess
true
59
without
yet
away
content
head
month
feeling
his
kinda
top
couldn
else
team
mean
cursed
outfit
##g
idea
mind
stay
##al
catch
council
second
tangents
own
talking
awesome
later
level
yeah
break
heard
nothing
xd
miss
days
started
proud
along
anything
hilarious
old
wish
until
trying
used
wow
anime
gamer
sana
scary
💚💚💚
hearing
spooky
fall
moments
feels
seems
lovely
came
debut
minutes
him
server
green
side
##u
list
singing
tell
chill
kaela
lmao
cant
honestly
knew
become
hopefully
wanted
fight
gets
anyone
late
appreciate
point
fan
friends
name
each
felt
isn
lots
power
watched
between
100
youtube
yourself
must
water
scared
irys
literally
finish
snail
ok
saw
series
worth
comment
collabs
die
eyes
character
sad
won
portal
art
past
beating
win
working
morning
brain
##on
laughing
wrong
build
hair
monday
background
faunwell
found
needed
##ers
goes
ears
wholesome
place
##le
cozy
damn
dont
##us
high
return
entertaining
forever
fine
lost
turn
pb
close
crazy
##b
##re
agent
gotta
hour
liked
noises
members
others
wonder
worry
words
##th
ina
##💚
cover
fast
kill
okay
read
saying
##able
imagine
tho
hit
house
person
face
took
##ness
christmas
haven
reason
show
##ting
anyway
dream
##ling
expect
pc
support
##ie
chance
fact
building
course
half
original
sweep
guy
taking
instead
despite
omg
understand
dark
sub
##ion
##ted
sometimes
space
surprise
happened
home
type
entire
hey
using
sc
totally
blast
fantastic
faufau
wouldn
bioshock
friend
##ic
free
##f
leave
soft
comes
karaoke
soothing
##ment
##st
beat
vibes
waiting
fell
hand
wanna
zoo
anniversary
##x
ago
call
##ies
##te
called
less
nether
weird
ah
kalimba
laugh
body
incredible
showcase
matter
school
early
finished
forest
thumbnail
##or
fau
turned
##ck
##c
switch
treat
baby
councilrys
japan
says
ones
either
ended
soul
silly
whatever
blessing
bring
cause
eat
absolute
battle
expected
konfauna
starting
timestamps
##w
stories
##0
##an
mario
oshi
arc
calli
mom
enjoying
herself
mode
##ve
bed
check
easy
expecting
fire
giving
mc
##ry
caught
sea
slap
jp
needs
videos
##ge
death
ku100
tonight
works
gave
complete
relax
shorts
starts
helped
normal
##ts
energy
english
practice
##ping
quality
reminds
##ive
dragon
forget
jump
bald
lets
strong
acting
chaotic
finishing
clover
animals
book
combine
model
##ia
food
superchat
cats
extra
means
nemu
possible
beginning
lore
triggers
months
vtuber
final
kiara
##tion
##z
chaos
##less
finger
joy
##en
indeed
special
##2
##ation
amount
channel
completely
endurance
levels
memories
rip
btw
continue
hoping
##7
##ity
based
gameplay
variety
##nt
add
round
tournament
##rs
audio
gone
screen
##ful
change
edit
faunas
gives
knows
bgm
id
idol
personal
plays
single
wins
wither
helps
room
running
takes
ya
##ce
black
quiet
usual
wild
##est
animal
happen
movie
smile
thinking
tried
busy
cutest
learn
under
comments
deer
deserve
halloween
minute
poor
wants
##4
##el
bossa
open
seem
##ty
boy
certainly
streamer
exactly
gang
managed
##ar
chatting
clear
vs
against
basically
cuteness
holo
idk
shiny
small
stage
yubi
adventure
move
often
somehow
surprised
##ate
##ent
join
legendary
##ne
enjoyable
group
nova
set
title
usually
zatsu
japanese
perfectly
schedule
sense
sleeping
songs
version
alone
aren
fanart
party
##ll
aside
ask
bro
deep
forgot
form
huge
jokes
peak
skills
sports
classic
episode
pick
assassin
dead
family
favourite
internet
couple
incredibly
speed
wake
##na
learned
longer
member
mission
##am
fr
journey
safe
seriously
stand
sunday
##ch
##et
fish
playthrough
pure
##is
putting
weekend
died
emotional
human
vacation
woke
evil
natural
san
cannot
falling
hi
hold
inside
ready
taste
three
trust
light
mentioned
player
style
vibe
##um
adventures
ame
behind
problem
process
speedrun
tea
calm
civilization
due
excellent
hell
stress
##se
agree
community
fauna7
haha
near
showing
brought
chan
easily
fruit
ice
joke
king
##it
killing
straight
thats
pls
red
trip
voices
##5
##il
although
city
pain
reference
ride
##me
##❤
fuana
gift
hate
money
quick
shibayan
spore
touch
##3
actual
buy
certain
epic
goi
looked
maid
trees
2nd
500k
banana
bless
concert
cry
effort
mine
powerful
secret
writing
anymore
quickly
random
rather
##ped
##ra
fans
main
whenever
worked
asmrs
extremely
happens
hurt
##nce
becoming
fluffy
golden
hands
hype
meeting
dog
nostalgic
similar
timestamp
tingles
##ist
boss
co
demon
dying
raid
test
victory
wide
##as
added
became
kid
lady
master
october
turns
count
design
holoen
intro
lately
parts
##ure
de
hyped
pirate
pov
snot
##id
##king
choice
serana
sick
##ated
case
laughed
membership
##ter
##の
bottom
double
hot
important
lose
queen
shame
training
winning
calming
healing
hug
middle
mondays
outside
personally
save
seconds
shows
warm
##ged
##up
anyways
banger
eye
map
ngl
noticed
sing
tapping
word
##8
area
compost
kept
killed
leaves
merch
performance
plenty
pop
punished
relaxed
supa
yesterday
alright
cut
deserved
hello
immediately
knowledge
loving
meet
pro
spend
watchalong
beloved
characters
doubt
fellow
given
goal
match
noise
recently
sounded
##ble
advent
apple
comedy
earth
gentle
reveal
star
theme
towards
vampire
vegan
yo
##6
##ant
##ny
bee
bonus
brings
butter
fit
gym
likes
low
recommend
suit
##ke
amnesia
captain
crying
drawing
dude
learning
massage
meme
plus
##led
##v
atmosphere
didnt
eating
favorites
gotten
leader
lucky
roleplay
##1
archive
creepy
elephants
exciting
hits
keeps
planet
project
reaction
senpai
swear
bunch
eventually
update
yoshi
##man
##oo
anuaf
built
doki
dota
grass
however
listened
neck
realize
rough
someday
war
##ta
##ving
known
missing
perhaps
piano
pleasant
positive
slow
topics
weeks
##ary
##ee
##ki
campaign
dad
glasses
holy
impression
impressive
itself
knowing
rat
rate
regardless
shenanigans
speaking
unique
##ance
##て
camera
general
gold
helping
huh
plot
question
shanties
store
truck
##os
except
insane
line
non
rain
respect
saps
send
shot
tired
##ds
challenge
closer
fits
grow
kirby
loud
mic
mvp
simply
##cy
##rd
comfortable
dreams
laughs
magic
note
peace
season
share
sort
uh
##at
##ian
##ine
decided
genuinely
issue
language
living
number
op
successful
till
tskr
##ma
##ng
action
attack
block
drop
escape
fully
honest
mention
showed
spent
thoughts
worst
##9
##les
attention
dang
dear
fighting
keeping
self
suddenly
supposed
talks
##ally
##ating
##ied
##ss
dogs
hanging
release
trigger
vtubers
##age
##rt
calling
cheese
finding
hang
kids
mending
opinion
post
sister
slaps
stuck
yay
##ps
blocks
clean
ends
hardcore
keeper
la
notice
reach
regular
sleepy
ty
##ous
##pe
completed
difficult
intense
mostly
onee
portals
sasuga
solo
summer
##ging
##op
completing
fear
frogs
fruits
happening
merry
o7
phone
realized
tangent
unhinged
within
##red
##sing
asked
beyond
box
cape
catching
clip
cream
creative
famous
fishing
joined
multiple
plant
precious
reactions
session
sonic
worried
##cing
age
among
chao
faster
growing
heartbeat
heck
issues
mood
sama
situation
steam
target
twist
##ut
awake
changed
children
civ
company
confused
deal
easier
exist
interested
lie
lord
masterpiece
mori
otherwise
pizza
planned
players
protection
references
slowly
spa
step
superchats
##ial
##ro
continues
cuz
fair
farms
giggles
impressed
ma
nostalgia
puddle
sneeze
supas
tough
##ct
##per
##ual
beans
blood
elefauna
giant
haunted
hole
horrors
mad
ocean
oil
passed
record
score
simple
spoiled
told
uwu
4th
afraid
ender
ideas
mouse
pay
que
rage
seemed
spot
timing
ton
turning
twilight
types
zeta
##de
##ish
500
bringing
bug
button
drink
event
father
frog
overall
personality
rare
runs
section
smooth
vc
##sed
##い
3dio
chamber
difference
elephant
follow
goofy
honey
iron
ollie
order
projects
push
rock
taken
universe
wondering
##ns
##ring
##sh
alarm
base
class
dlc
filled
headphones
ive
loop
massive
opening
playlist
race
rewatch
scene
setting
simulator
watame
ways
##ms
answer
combo
considering
damage
dropped
fix
funniest
loves
present
skill
smiling
sometime
telling
white
witch
##ite
##ning
ability
becomes
chats
cleaning
consider
cow
create
four
ground
heaven
lives
monster
mouth
scare
tbh
wanting
wood
##ence
##ice
##py
breaking
cake
control
cooking
creed
duo
etc
fingers
fuwa
losing
owl
potential
ship
sus
sword
whispering
##ad
##wa
coconut
current
faith
nicely
plan
reminded
shes
whispers
##bs
##ical
##io
broken
curious
cuter
eee
faun
guard
improved
million
moving
penumbra
possibly
previous
pull
strange
terrifying
##ba
##fauna
##tic
##uring
ahead
ants
arven
blue
cheering
collaboration
combination
commentary
controller
dredge
lead
pink
prepared
ur
##ned
##to
##ur
ads
alive
barney
bye
cringe
happiness
jumpscare
problems
sensei
soccer
spending
success
walk
write
zero
##out
appreciated
barely
comforting
describe
exact
french
fucking
hero
history
holocure
humming
interactions
memory
nobody
picture
princess
seiso
serious
several
suffering
surely
system
theory
unbreaking
unfortunately
vods
wrench
##ay
##work
admit
bloody
closet
daddy
em
emotions
hasn
kun
mogu
pre
twice
unexpected
##go
##ha
##ner
##ze
##😂
biscuit
clearly
effect
emo
fes
gg
joining
keyboard
lemon
piece
points
quest
repeat
rust
shadow
speak
throughout
yours
yt
yukata
##rate
##か
##る
bears
brave
child
enemies
evening
fairy
force
hunting
lag
meant
reality
sadly
stressful
sudden
sugar
tears
tower
unless
witness
woman
worse
💚💚
##ir
##ized
##ri
1st
beach
begins
bet
bruh
choose
color
common
curse
earned
elytra
facts
familiar
faunashi
fixed
floor
garden
gen
grateful
holding
horse
noel
pass
pumpkin
sauna
sooo
themselves
tutorial
upgrade
##ber
##da
##ming
3am
angry
biggest
carry
chemistry
childhood
creature
door
example
figure
further
gacha
hat
keen
mechanics
picked
retweeted
rp
sharing
snuggle
spiral
subs
wall
##co
##way
asking
biboo
casual
clarence
cold
draw
lil
motion
normally
phasmo
pot
scratch
shall
shiori
shouldn
sit
stick
total
upon
waking
##ade
ac
air
alot
bowling
breath
certified
milk
neat
oops
pet
puts
rpg
terrible
##cle
##ible
##ii
##mi
advice
books
date
decide
friendly
front
humans
kuudere
large
magical
paid
pie
retweeting
rookie
sanity
viewers
##ball
##ors
##ries
##ue
accidentally
adding
banter
beauty
bought
cave
computer
discussion
events
fail
greatest
harder
max
memes
nearly
paper
pat
pleasure
satisfying
scares
stealth
surprisingly
toxic
vr
worries
##ard
##ier
##iest
##la
##lin
##tions
##zed
classmate
concept
confirmed
created
everytime
fresh
haachama
hurts
jarod
loading
myth
option
options
protect
pulled
ring
rn
screaming
skin
thankyou
village
##ins
##nd
##rk
##rys
##va
accurate
ball
boom
bottle
boys
branches
broke
confidence
creating
cup
diabetes
disappointed
distance
entertainment
flag
freaking
mess
message
nap
nose
older
polka
ps
roll
scripted
silent
sky
somewhere
starfield
sun
whether
##ga
##ious
##med
bees
comfort
competitive
dandere
eliminated
evolution
following
golf
kimono
missions
nee
orange
roots
saving
scs
shark
sickness
sitting
upcoming
volume
wind
##aa
##ger
##ise
##tes
addition
antics
bag
blursed
bread
burn
coordinates
correct
crossing
everybody
hearts
hitting
including
items
land
maker
moon
movies
oranges
per
perfection
places
plans
readings
scuff
setup
slightly
stayed
tiny
tip
treatment
tummy
yabe
##bly
##ism
##ks
##no
##ute
##vation
addicted
ain
bars
bomb
brush
chest
club
comedic
compared
delicious
emote
fitting
flowers
gooo
grats
handle
hide
ill
improve
mark
named
names
nerd
prefer
reine
road
sent
sides
slapping
specific
tune
twitter
visit
waifu
##ak
##als
##by
##ey
##ide
##ls
##shi
2022
above
ahh
attempt
bethany
clips
college
combat
dangerous
finale
garcia
holoween
horns
killer
laughter
likely
matches
mod
mr
murder
outfits
potato
re7
salt
saved
sheep
throw
topic
va
wednesday
weren
##ai
##ding
##do
##ize
##ld
##ose
##ot
##ress
##son
##ya
ahhh
appearance
asagi
awhile
bigger
candy
cheers
clearing
dedication
dere
fly
jojo
leading
leaving
liking
manage
mental
met
peaceful
protagonist
screams
shadowhedgehog
slept
stronger
third
trouble
ultimate
uses
💚💚💚💚
##00
##gy
##hh
##ko
##lt
##sy
000
ad
batsu
business
connect
conversation
currently
delighted
devs
el
eldritch
focus
goddess
goooo
impossible
moona
otsu
physics
sisters
touching
trash
view
violence
warning
##ization
##ked
##ky
##lly
##mo
##oooo
##ore
##ver
##ward
##は
##🌿
adds
aras
canopy
competition
cult
destroy
driving
flower
friday
higher
item
rainbow
recent
remembered
service
sign
soap
spawn
spirit
standing
stopped
##ah
##be
##ction
##ff
##ments
##min
##ol
##ons
##tch
##tive
3rd
ayo
babies
bar
beats
beeg
bits
brainrot
changes
creation
dialogue
drinking
edge
emotes
explain
feet
ghosts
key
lyrics
moom
overworld
path
reasons
revenge
settings
shake
smell
soooo
souls
waku
warden
weapon
wheel
##gs
##ile
##ru
##sm
##uu
##zing
##♪
##🙏
amazingly
bonk
brother
bubble
builds
considered
constantly
creatures
da
daily
earlier
endings
fff
glass
glorious
guild
heavy
impromptu
involved
korone
ladies
min
npc
perms
pineapple
pipe
pog
scream
shy
suika
wtf
zone
##ably
##craft
##down
##ess
##ition
##q
##ration
##sion
animation
apparently
ascended
born
branch
cheer
cherry
drive
dunno
failed
fake
healed
health
holidays
immersive
infinite
meow
mix
nah
online
opportunity
pace
reached
returned
sauce
scores
sequel
shift
skip
spider
staying
strategy
thx
unite
various
vid
wrote
┣1
##eee
##ening
##iness
##ku
##mp
##my
##ow
##tain
##о
##と
##💚💚
##🥰
allowed
anxiety
bear
billy
clutch
ed
fav
goodness
headpats
healthy
humanity
letter
meaning
nervous
notes
nyo
pit
plants
powers
prep
recorded
scenes
shape
size
solid
soo
spoiling
stone
stonk
student
studying
sucks
supporting
talent
views
walking
wife
worthy
##and
##bed
##ets
##light
##ooo
##ury
##ven
##ys
act
angel
beef
bpm
champion
changing
chose
click
clothes
cupcake
destroyed
doctor
genius
goth
hungry
inspired
interest
lamy
leaf
legs
letting
lighthouse
mistake
moe
nonetheless
proper
rabbit
remind
suki
swamp
track
tuesday
##asing
##cks
##ker
##line
##men
##ory
##ug
##za
##た
##💚💚💚
alexander
aww
boat
brushing
buddy
calls
creator
crew
drill
frame
heal
humor
hunt
ignore
insomnia
instant
kills
kiss
kobo
material
meal
monsters
none
park
promise
replay
role
scenario
stamp
state
strongest
summon
survive
thoom
welp
whisper
youre
##acing
##ase
##ium
##old
##rn
##tation
##uck
accent
account
ant
avoid
board
chapter
clock
corner
development
discovered
effective
elevator
existence
flying
followed
forgotten
gun
imo
instantly
kinds
messages
meta
mountain
mummy
official
rap
records
relatable
sinistea
smol
social
somebody
speedrunning
spoilers
talked
todd
trick
useful
winter
##back
##cker
##cted
##lies
##side
##ture
##use
##ved
##🏻
ai
artist
below
collection
congratz
constant
controls
cost
designs
dinner
edgy
egg
entirely
explore
fashion
five
gorgeous
image
lower
menu
mins
novel
papa
planning
relaxation
results
rolling
sailor
smart
sneaky
somewhat
stressed
town
uuuuu
visual
wearing
weekly
willing
wooden
xenofauna
##bin
##der
##end
##mer
##tor
##ural
##ush
##ust
##а
##に
##ん
bell
bucket
card
chicken
context
conversations
cook
daughter
drip
effects
es
everyday
existential
farming
fps
grown
hadn
heartwarming
helpful
highly
info
legend
legit
loss
machine
melting
nintendo
nya
odd
pack
particular
pickle
pon
popular
properly
questions
reaching
scuffed
shorter
spare
treasure
wishing
woah
zatsudan
##ect
##her
##ill
##mm
##uuu
##val
accept
accident
across
casually
chatty
dance
description
deserves
details
express
freelancer
gosh
grab
information
inner
irl
kawaii
lack
lonely
mickey
mini
mixed
moves
news
overload
peanut
pillow
position
related
result
sniper
spoil
streamers
suggest
tips
train
trap
tsundere
unfortunate
valley
value
viewer
whoever
##0k
##ically
##ient
##ip
##izing
##phy
##pt
##rian
##uff
##👏
alongside
annoying
anya
arms
ate
axe
bathroom
bros
careful
chad
choices
circle
compilation
confident
dedicated
difficulty
disgust
doko
dumb
dynamic
ease
everywhere
excuse
fallen
fate
grand
guardian
halfway
hardest
holiday
knocked
lesson
library
math
medium
mid
mii
miitopia
milkshake
moved
particularly
patience
plz
recommended
recover
rule
sacrifice
subject
suits
talented
technically
thinks
tone
uuu
villager
weapons
whats
##ator
##cking
##dy
##ions
##nces
##ric
##く
##👍
bath
besides
blame
burger
chocolate
cried
dimension
direction
drama
dropping
economy
excitement
expressions
feelings
genre
guide
hiding
highlight
hmm
indie
kart
local
mac
madness
meat
mods
ol
opposite
parents
perspective
police
professional
refreshing
resident
root
salty
sees
species
subnautica
teeth
uno
uuuu
villagers
vision
wa
wear
wonders
##ana
##aring
##ast
##ath
##ative
##bing
##day
##ight
##lay
##time
##un
##une
##ves
##wn
##ᅵ
2023
90
addiction
afternoon
alien
available
baelz
blind
boing
bugs
corn
delight
delightful
depression
fastest
feature
gods
goodbye
granny
guardians
hidden
hime
improving
john
knock
lava
link
majestic
metal
momma
movement
ninja
onto
oof
potion
prepare
prerecorded
pressure
puzzle
redemption
released
remove
review
sailing
scratching
shanty
simp
smug
snow
stars
streamed
sweaty
tend
tons
tracking
unwind
wont
written
yep
##dere
##ering
##gh
##ify
##ji
##jo
##lo
##nse
##one
##our
##ray
##ub
##ude
##zz
##う
##🎉
##💙
announcement
apples
average
aw
battles
bite
boots
burning
ch
clown
combined
comeback
cracked
crunchy
dare
emerald
encouragement
enemy
forgive
gem
ha
hmmm
isnt
jeremy
jesus
jk
lightning
module
mushroom
notification
obviously
pekora
punch
route
royalty
seat
sending
shut
situations
strats
teaching
tells
ten
thankful
theres
throwing
toast
tourney
tries
truth
twitch
un
wave
weak
yellow
young
##ass
##ations
##bo
##cent
##eat
##em
##istic
##lation
##nya
##om
##rating
##sa
##sty
##ware
anywhere
armor
auto
breaks
broadcast
caring
chip
colors
costume
couldnt
dancing
danger
decent
defeated
delivery
dies
drillbert
endless
environment
era
expensive
experienced
falls
fault
flavor
giggling
hahaha
holomem
ikz
kouhai
kronfau
limited
livestream
major
mighty
motivation
necessary
nemona
opponent
parkour
props
ranking
reset
scariest
science
search
segment
sneak
snotcast
society
source
stock
syndicate
teacher
tear
text
unlocked
urge
vanilla
window
yagoo
##ave
##con
##mate
##nding
##nk
##orn
##ral
##ree
##ster
##thank
##ugh
##е
##и
##ます
##を
##💛
1000
audience
balls
bird
bow
breakfast
bridge
bunny
buying
cameo
cap
car
celebration
comfiness
continuation
covers
cubes
decision
dirty
doesnt
doin
dreaming
efficiency
eternal
expectations
feed
frustrating
gifts
goals
hbd
hehe
highlights
innocent
invested
jumpscares
lap
leg
marathon
models
modern
monitor
multiplayer
mv
obvious
parasocial
physical
productive
sap
seas
selection
shop
six
slime
specially
spoiler
spring
squishy
strat
suffer
tale
tastes
teacup
terms
tour
vocals
waste
weather
worm
##25
##ded
##ell
##ft
##hhh
##ings
##iting
##load
##mic
##nts
##ome
##oth
##ties
##uce
##vo
##ᆫ
##✨
##てす
##な
##😊
##😭
anybody
appear
aqua
asks
bean
chilling
coins
complaining
construction
copy
depth
eh
exploring
fails
fill
flash
folks
friendship
gathering
gooooo
grimace
hammer
highest
himself
holomems
interact
junji
kon
layer
management
manga
marine
meanwhile
men
minigame
naturally
nowhere
og
onomatopoeia
opinions
passion
picking
portion
press
priestess
program
ptsd
puzzles
recommendation
recovery
rollercoaster
sang
seek
sentence
sight
sings
sounding
specifically
spiders
stealing
stomach
strikes
suppose
survival
table
technical
trials
ups
vegetables
villain
waves
witnessed
yall
##35
##aaa
##ach
##ane
##art
##book
##born
##ick
##ities
##its
##kin
##li
##mes
##mination
##nder
##od
##og
##ok
##pes
##pper
##ron
##rp
##sive
##sure
##tte
##ually
##zer
64
advance
affirmations
afterwards
ancient
anti
army
arrow
attacks
brutal
bubbles
cast
caused
channels
cheesecake
closest
coffee
confirm
culture
dirt
edward
encounter
energetic
fauntastic
finds
grind
growth
held
holocouncil
hooked
insanely
kidding
kira
lights
mary
narrator
nights
painful
photo
pray
provide
rapture
regret
rules
saturday
script
searching
seven
sold
son
spaghetti
stamps
survivors
tap
term
thanksgiving
touhou
##ain
##bal
##che
##cho
##cked
##eal
##els
##gic
##ils
##j
##ley
##lf
##live
##llow
##oe
##ond
##ord
##pm
##roll
##rr
##tained
##ud
##uh
##und
##verted
##vy
achieved
amazed
appears
await
aware
backseating
basement
category
checking
chosen
comfiest
contrast
distracted
dread
drops
elite
expert
fancy
figured
grandma
homework
ii
imma
intensifies
introduction
inventory
ish
ito
jack
jetlag
jumping
mane
microphone
midnight
mining
mon
mortuary
naruto
offer
peko
perform
podcast
practicing
premium
price
public
request
resist
returns
rocks
ruined
ryan
seed
servers
sharpness
snake
spoken
steal
te
themed
thousands
tools
touched
trade
unstoppable
wool
##aking
##ans
##bi
##ca
##ents
##fire
##ges
##gi
##girl
##ien
##kes
##land
##lated
##lm
##mas
##pling
##pping
##res
##sis
##table
##test
##tional
##ulated
##una
##ured
##ᅡ
##した
##も
##💕
according
asrm
backlog
balance
bananas
begin
belong
bounce
bright
canada
charm
code
colour
cookies
cop
counter
country
cross
cultured
dealing
defeat
detail
discord
edition
empty
enter
experiences
extreme
flat
forced
fortnite
generally
girlfriend
glory
honor
hood
included
lines
march
marry
mobile
mold
mooms
moomsuke
mushrooms
mysterious
nightmare
nl
nooo
originally
pause
proof
punishment
puns
randomly
rank
rarely
rise
saga
sandwich
scarier
sections
sorts
speedrunner
ss
sticking
struggle
study
submission
technology
tongue
unlock
upset
vasco
wonderfully
yea
┣37
##edly
##ened
##fit
##hing
##inary
##ined
##ists
##jou
##oot
##que
##rading
##rant
##rew
##rim
##rine
##ul
##unt
##yo
##zo
##ᅥ
##ᅦ
##ᆯ
##り
1m
3k
60
aka
animated
ass
assistant
atleast
autumn
awkward
baeruto
band
bliss
brand
breathing
bullying
canon
castle
center
challenges
chu
cleaners
completion
congratulation
continued
cotton
crown
cutie
dishes
display
divine
dose
dreamt
dress
embrace
enjoyer
evolved
exists
extinct
female
fever
flies
forgor
garlic
goodnight
google
grows
guerilla
happier
hill
improvement
juice
kindly
kitty
kroni
lists
literal
lookin
memorable
mofu
monkey
motivated
musical
noooo
office
officially
panic
pika
placed
quote
rabu
range
reject
removed
replace
rewatching
rhythm
rumbling
sell
shampoo
sheet
smoothly
strike
struggling
subscribers
sweeping
thursday
thus
til
toilet
travel
troll
udo
uuuuuu
uuuuuuu
wasnt
zooming
💚🌿
##ban
##bby
##cs
##des
##ement
##gen
##he
##hip
##igh
##ire
##key
##lla
##lve
##matic
##mber
##oon
##ou
##pad
##play
##port
##pped
##rated
##rky
##rm
##tale
##udge
##urry
117
200
2021
actor
american
antlers
areas
argue
asmrtist
barn
beings
brilliant
brotherhood
buff
caves
celebrate
chair
chills
climb
con
connection
controversial
countless
deadly
delivered
demons
despair
destruction
download
eggs
elder
endearing
entering
fauna💚
field
frfr
fubuki
greater
heh
hugs
iconic
interaction
introducing
joking
justice
lamb
lived
lotion
maximum
melt
mixing
negative
nene
nope
opened
outlast
outro
pets
pieces
presence
remain
resources
scale
shotgun
sim
soma
speech
spice
staff
subscribed
surprising
talents
timeline
tingly
transition
trial
tv
ultra
understandable
understood
washing
wise
yabairys
┣15
┣56
##ars
##ates
##bling
##cer
##ctive
##ics
##ift
##ining
##lines
##lings
##low
##mark
##mei
##mmit
##ni
##oooooo
##oring
##ound
##over
##rin
##rior
##thanks
##the
##ther
##tract
##tt
##tter
##ui
##ull
##vity
##ь
##💜
80
achieve
active
adult
allow
apart
artists
assume
atmospheric
babe
beaten
bethesda
boi
buttons
capable
carrot
chambara
cinnamon
collecting
convinced
core
dice
dragonborn
drunken
efficient
equipment
er
eu
evidence
experiment
exploration
faunaaaa
feather
flew
forth
gary
gear
goo
grammar
guards
haunting
heat
hoped
hunter
hurricane
imagined
importantly
inaff
increase
inspiration
inspiring
jet
kiwawa
kouhais
ku
length
lit
magnificent
market
melted
moral
ow
paris
patch
pats
popping
praise
preparing
prove
purple
purpose
received
research
rich
roof
sheer
shoulders
shown
solution
spicy
squats
stages
standard
stroke
suggestion
sunburn
suspicious
tall
tech
threw
titan
tomato
trio
twin
valentine
vine
watermelon
weight
wishes
yup
zatsus
zombie
┣43
┣44
❤❤
##ail
##ap
##bara
##cial
##ctic
##dies
##ef
##ght
##gue
##head
##hor
##ield
##ily
##im
##itation
##iving
##ka
##lessly
##lling
##ob
##pa
##pp
##put
##row
##sss
##tered
##ti
##tly
##tro
##ube
##ures
##vin
##м
##다
##ら
##💀
##🔥
2d
af
ages
alternate
apologize
appeared
april
attempts
basic
bc
beam
believed
berries
blabbot
blanket
chase
clever
collect
cowkini
cruel
depending
desk
disagree
dome
doubted
dry
emotion
faunaaa
flashbacks
fontaine
ganbatte
gf
gladly
goxlr
grade
grew
hacking
haired
hall
hardly
hates
heavenly
himedere
hint
houses
illegal
immersion
impressions
judging
jumped
laptop
lo
log
loose
mass
materials
messed
na
nun
ode
outer
peach
proceeds
pulling
rainy
realise
relationship
reveals
ridiculous
risk
rushia
seasons
shared
sleeves
spoopy
sport
stops
strength
subtle
teach
terrified
tested
thicc
thousand
towel
yabai
yourselves
와
┣33
┣45
##berries
##cc
##ception
##ens
##ered
##fy
##ication
##ified
##ime
##inal
##inate
##ional
##isible
##ives
##ja
##late
##lding
##lip
##lish
##lled
##lls
##ncy
##ox
##pable
##room
##ses
##tures
##ulation
##unities
##uru
##vice
##wood
##ります
activated
alice
america
appreciation
archives
aspect
beethoven
behold
blew
breeze
brothers
bully
bunker
carried
carrying
causing
chef
chunk
closing
complex
concerned
confusing
consistently
crisis
custom
cutting
daniel
dig
doom
duty
focused
format
gross
guest
hail
helmet
holds
insert
jumps
kick
kokoro
limit
majority
melody
mob
moba
nut
pair
passing
peacefully
persona
preparation
progression
pushing
quit
react
recording
regarding
relate
rude
rush
saws
shock
shopping
sir
smiles
soup
speaks
spitting
split
spooktober
staring
storytelling
successfully
surface
thorns
tierlist
timezone
timmy
um
unintelligible
updates
vocal
wash
women
┣18
┣22
┣48
❤❤❤
##05
##49
##ager
##ash
##bility
##board
##ched
##cting
##dle
##ery
##ew
##fully
##gers
##gion
##hhhhh
##ially
##ience
##ifying
##ines
##ingly
##itivity
##ived
##lacing
##like
##lty
##mine
##nes
##nting
##ooooo
##ops
##ously
##pu
##rable
##ris
##rse
##rush
##rve
##tely
##uffs
##uid
##ution
##vable
##ways
##т
##😳
162
access
adoring
algorithm
assassins
berry
bone
bravo
care💚
classical
cleared
clicked
coincidence
conclusion
console
copyright
creativity
creators
cure
definition
deliver
designed
digging
directly
dnd
doubters
dramatic
efforts
explains
fantasy
fascinating
faunaa
faunapolis
fights
fortune
fuwamoco
gain
gap
gather
genuine
graphics
greatly
guaranteed
ib
include
increased
influence
joker
lazy
led
location
lying
messing
mia
miko
mio
mobs
moly
monke
nailed
ni
nor
ooh
overlord
packed
pasta
patient
paying
picks
poison
possibility
proved
pun
raging
realizing
rounds
row
senpais
shaving
ships
shoot
sicko
silence
slice
snack
spambara
spin
steps
stood
storage
sweets
task
tied
todays
tool
tuber
tuning
unable
underground
understanding
ver
void
walls
wendigo
windows
wisdom
┣09
┣51
💚💚💚💚💚
😂😂😂
##58
##ading
##aging
##ame
##ami
##bb
##berry
##cend
##eer
##ending
##fish
##form
##game
##gar
##ho
##house
##hr
##ica
##if
##las
##ler
##let
##llar
##logy
##mmy
##ooooooo
##pet
##pse
##ram
##rds
##reed
##rf
##rts
##tin
##tors
##uke
##ument
##ups
##urage
##uts
##😆
99
adiantum
anytime
aoe
apply
approach
aura
axolotl
basket
billion
birds
birth
bonked
bother
bowser
chainsaw
challenging
chances
checked
cleaner
closed
clue
coin
como
companion
complain
continuing
covered
cracking
crime
crushed
darkness
darn
decade
default
devour
dislike
dollars
drawings
educational
episodes
essentially
exp
faces
fairly
faunatics
faunaversary
flip
gained
galaxy
gate
giggle
goat
gum
happily
havent
hectic
horrible
lunch
mate
melon
milkshakes
movements
narration
npcs
oblivion
para
pbs
period
permissions
phasmophobia
physically
pickaxe
pictures
platform
powder
product
psychological
puppy
rambling
ran
receive
redstone
required
reverse
robot
sakura
satisfied
sessions
smaller
sneaking
sneezes
sooner
sooooo
sticks
stray
subtitles
survived
taco
tail
tasting
teams
ted
tense
thick
toy
tweet
uhh
uuuuuuuu
watches
wrap
younger
┣11
┣21
┣30
##12
##23
##33
##92
##ady
##ag
##ang
##ank
##ara
##bae
##box
##cal
##cha
##chi
##ckle
##cles
##dos
##ero
##fied
##fing
##fw
##ians
##ibility
##ibly
##ific
##illed
##ini
##ishing
##itive
##ius
##lance
##list
##lity
##mr
##nn
##oons
##ora
##pect
##pit
##ple
##posing
##ppy
##read
##ressing
##rief
##ship
##so
##take
##tle
##ton
##tory
##uch
##ucks
##uds
##ular
##using
##ustration
##uuuu
##vated
##well
##ws
##я
##ᅩ
##ᅳᆫ
##し
##🌱
##😅
##🤣
4k
5th
abyss
accomplished
achievement
advantage
aesthetic
affect
aint
alcohol
alley
allows
alternative
attached
australian
ave
bank
banned
bau
beehive
boot
british
career
chameleon
charts
cheap
chores
convince
corpse
cured
deaths
deeper
dessert
devil
differently
direct
discover
dragons
drunk
elden
engaging
entered
exception
explaining
features
festival
filter
flora
foddy
franchise
freak
fus
giraffe
global
gremlin
grinding
gympie
handled
heads
iii
iirc
immaculate
incident
italian
latte
league
loaded
louder
lullaby
matters
minds
mistakes
muda
muffs
murdered
mystery
nerds
northernlion
numbers
ofc
ohhh
ole
omae
orb
outta
overcome
overwhelming
pangolins
pepper
phantom
pills
pool
posting
prank
relationships
repeating
resort
responsible
returning
reward
rid
sa2
sake
sequence
shaking
shaped
sniff
southern
spam
spell
splash
spots
stinky
storm
subaru
succeed
sundays
surprises
swing
tag
tank
testing
thoroughly
thou
titles
transmission
trapped
treats
triple
trusting
twinkle
typical
unlocking
vengeful
vids
violet
walked
watchalongs
winner
woods
youtuber
┣07
┣17
┣27
┣39
┣50
┣55
##42
##antly
##ards
##are
##au
##balls
##coming
##ei
##erman
##fits
##gate
##gle
##gling
##hhhh
##hi
##ind
##ink
##ision
##lide
##lied
##life
##loud
##lved
##mal
##mates
##mind
##mmer
##name
##off
##ories
##ost
##pie
##pies
##pin
##rain
##raphic
##reak
##ream
##rest
##rived
##rry
##rushing
##shes
##sia
##spire
##sta
##tent
##titude
##tled
##tsu
##ua
##ulate
##umps
##unch
##ura
##urs
##usting
##uy
##vention
##у
##ᆼ
##ね
##💖
##🤎
accidental
activities
addictive
additional
agreed
aid
alpaca
animations
answers
assassination
autotune
awful
bangers
bat
begun
blow
bout
bowl
catchup
catchy
charming
cheating
clippers
clumsy
coaster
compare
consistent
costumes
craze
cutely
desire
dev
diamond
dip
disgusting
driver
elements
enjoys
eventful
experiencing
explode
expression
faumei
fed
fries
fuel
fungus
funnier
garry
goodluck
goooooo
height
idols
imagination
improv
industrial
iono
iq
isekai
island
jam
jarl
jumpscared
latest
law
leads
legally
legends
lessons
longest
looping
luna
lure
maria
mi
mou
ms
nyan
offcollab
okayu
ost
participate
phase
phrase
pirates
playthroughs
por
ppl
praying
premiere
produce
production
profile
questionable
recognize
recovering
remix
removal
rescue
response
rested
resting
riding
rival
rod
rolls
rumble
rusty
sec
shaping
shocked
silenced
sis
skipped
snuggles
solving
sponsored
spread
stairs
stands
stole
stonks
stopping
strawberry
struck
studio
suisei
superior
tax
technique
tee
teetee
tension
thankfully
timestmaps
tingle
trunk
unironically
unreal
viewing
website
wii
wolf
wr
yippee
yummy
┣04
┣06
┣08
┣12
┣29
┣52
##10
##41
##ado
##aft
##all
##ambles
##arent
##dition
##dom
##elling
##etic
##eve
##fall
##fruit
##gging
##hale
##hy
##ig
##ination
##ior
##ites
##iversity
##kers
##lare
##lee
##lex
##lished
##mmm
##ocket
##odle
##oly
##ove
##pi
##rations
##rity
##rous
##rus
##school
##shing
##some
##thy
##tiff
##tir
##ums
##usted
##wards
##water
##weet
##wl
##worm
##yed
##ziest
##zon
##zzle
##ᅮ
##から
##🍀
abilities
addicting
adore
agrippa
ahhhh
aim
angle
arent
backseat
bark
blend
blessings
boost
bored
boxes
cafe
cares
charge
chibi
cities
climbing
cohen
confusion
consequences
correctly
counts
covid
crash
credit
cycle
dawn
deleted
disappoint
disguise
disturbing
drinks
eagerly
electric
embarrassed
entrance
existed
exit
explanation
faunaaaaa
faunasweep
fi
fst
grace
haunt
headache
headed
headpat
ho
impact
intended
intriguing
jealous
jerma
joins
kicking
knees
knocking
larry
laying
leggings
lift
load
loot
lui
maiden
maps
marvelous
matcha
melts
mentioning
meows
moose
mortis
muffin
mutator
naming
naughty
ne
needing
nico
objective
occasionally
oneesan
ouch
oui
pads
parade
parasite
performances
personalities
pile
plague
pretend
quotes
rasmussen🌿
rating
reads
recommendations
remains
reminder
reviews
ribbit
rising
rly
rooting
ross
rts
rubbing
ruin
se
security
serum
sexy
shots
silk
sink
slapped
slot
snap
snuggling
sodium
soundtrack
spectacular
squad
steel
stretch
supremacy
surviving
sweat
sweetest
swimsuit
tasty
thorn
throws
thumb
timed
trombone
tu
unknown
whose
wink
┣20
┣24
┣36
┣40
##0p
##31
##alm
##anor
##bulous
##can
##cape
##cate
##cated
##ches
##ching
##cise
##come
##cts
##cut
##dating
##dian
##eb
##eek
##een
##erature
##fer
##fine
##gan
##gant
##hoo
##ibilities
##ich
##icing
##iful
##imate
##ino
##ital
##itude
##ively
##izard
##kirin
##laws
##lete
##lieving
##lk
##lug
##made
##mama
##mation
##nal
##nia
##nis
##nks
##nsitive
##ought
##pressed
##quent
##quer
##ras
##rch
##ride
##rise
##runch
##rves
##shed
##sher
##soft
##style
##tations
##tentionally
##ternal
##than
##ulations
##ump
##vior
##ye
##you
##yy
##yyy
##zu
##zzy
##ᅡᆫ
##います
##りかとう
##👌
##😍
##😎
##🥺
100th
4090
700k
accessories
actions
aged
aight
amaze
arm
arrived
badminton
battery
beautifully
beds
bedtime
bennett
blaze
blossoms
blown
bot
bots
cartridge
chestplate
chests
choosing
christ
cola
complicated
confess
conquering
contact
craft
creeper
critical
dangerously
debuted
december
defeating
defense
deredere
destroying
determination
disappointment
distinct
eats
editing
enchanted
equally
euro
eventual
exams
executed
experimental
fanfic
file
fishin
fixing
flashback
flex
freedom
frustrated
furious
gently
gifted
glowing
guests
heavily
hers
horn
host
icing
imagining
immeasurable
imposter
individual
infectious
ing
itch
jazz
jeez
kitten
lies
lmfao
locked
logic
looting
lowest
mascot
massages
memberships
menace
meowing
mercy
miis
mortal
motherly
nerdy
nowadays
opera
otsufauna
ourochimaru
overture
owner
panik
permission
petit
pikachu
posted
practically
prevent
professor
progressed
pronounce
quests
raise
raising
raw
reacting
recipe
regularly
replaced
requires
revolution
rick
roleplays
santa
sat
scalpel
screens
secretly
separate
sh
shout
shower
simultaneously
skeleton
slight
snacks
south
spamming
speedy
spite
spittin
squeak
squeeb
stack
strawberries
strider
supply
swap
sweetness
syndrome
tackle
tamriel
taught
thee
tight
timer
tinnitus
trilogy
typing
uncle
uncomfortable
unlike
upgrades
uploaded
useless
versions
victim
voiced
voz
wacky
wherever
whilst
wipe
wonderland
┣16
┣19
ふわふわ
😭😭😭
##0s
##14
##20
##99
##ake
##alog
##beat
##bia
##bies
##bit
##cially
##core
##ctor
##dachi
##dge
##dles
##ection
##ede
##eeee
##ette
##ffin
##finity
##here
##iage
##icking
##iga
##iled
##imately
##isation
##itable
##iver
##just
##ken
##lain
##lank
##lect
##lizer
##loads
##lp
##lving
##lying
##minous
##mins
##mon
##nds
##ners
##nge
##night
##nish
##not
##nounced
##ody
##oking
##ones
##ong
##ori
##orized
##osh
##osing
##ote
##phone
##pted
##quently
##rat
##ravel
##ressed
##rey
##rint
##rit
##rize
##rmal
##ror
##rows
##stream
##sts
##sumes
##tage
##tched
##tend
##ters
##tile
##tm
##uit
##umble
##ume
##ux
##v1
##vage
##vant
##wig
##나
##いい
##す
3000
999
acquired
advanced
alike
attacked
avocado
baldfauna
beast
beer
believer
biased
blossom
bombs
bones
cables
camp
casting
champ
chris
classics
compliment
crab
dating
dawnguard
dearest
deres
differences
difficulties
dinosaur
disappear
distraction
doubter
edited
eerie
emotionally
engine
entry
environments
equivalent
eternity
europe
evolutions
exam
existing
exposed
fallout
fears
feeding
flipped
flow
foods
fool
forgetting
former
fourth
granted
groot
habit
healer
heals
hella
hologra
homies
hundreds
immortal
includes
inducing
insanity
introduced
invited
johnny
knife
knight
ko
lab
lane
larger
lay
le
lemonleaf
lemurs
lethal
listens
locations
los
lovable
lung
manager
manor
minecratf
minor
natures
notch
noticing
onlyfauns
organizing
ourselves
package
page
paint
patiently
pendulum
penguin
pero
pitter
plate
poll
popped
poses
powered
prechat
priest
private
proves
pulls
reaper
recognized
recovered
relatively
releasing
rifle
roller
rose
ruins
sail
saint
salad
sand
scheme
sentient
seriousness
shield
silicone
skirt
skull
smash
soda
spells
spooked
starbies
stare
starter
static
status
streamm
string
su
subway
survivor
susan
sweetheart
tails
techniques
toes
trauma
tricky
trucking
tsunami
tuned
twintails
typically
uhhh
unarchived
unfair
unit
user
utterly
violent
virtual
visiting
waited
wakes
warming
warms
weirdly
wet
whispered
wig
wine
wires
wished
yubis
┣26
┣32
┣47
┣53
##11
##18
##46
##59
##acity
##amari
##arily
##ases
##aul
##aw
##base
##bbed
##bbit
##bborum
##cast
##cat
##cation
##cern
##cessarily
##chat
##cia
##ciation
##cious
##cnomiohyla
##donalds
##eet
##ences
##ented
##ep
##ete
##eting
##eved
##filling
##four
##gies
##gn
##hand
##hee
##hin
##hs
##iable
##iding
##iii
##ik
##ika
##imasu
##ina
##iot
##isa
##ised
##itating
##ivate
##ix
##jects
##keeper
##lair
##lander
##lestone
##lot
##love
##lr
##lu
##lves
##mantic
##mediate
##mie
##mise
##mit
##nser
##nte
##ntic
##ooting
##ope
##opers
##osed
##plant
##plings
##point
##poke
##posed
##ption
##rasil
##raving
##ressive
##rick
##rolls
##rpg
##stic
##sult
##taneous
##ten
##tting
##uation
##uced
##unning
##uous
##urd
##used
##user
##uting
##wim
##ᆷ
##った
##ても
##よ
##🎷🎺🎸🎻🪕🪗🪘
##👁
##🥰🥰
1am
2am
400
aaaaa
abandon
accents
additions
admire
advancing
alexa
aliens
amogus
amsr
amusing
announcements
approaching
archer
arctic
arrives
automatically
avatar
avoiding
ay
badly
bday
began
belly
betrayed
bias
blade
bosses
botw
bound
boundaries
bounds
brighter
bubbly
bunkeronii
cart
channeling
cheered
chit
choco
chop
chou
circumstances
claim
clickbait
clipper
collabing
commenting
confession
conscious
cooked
costs
counting
covering
creations
cries
crisp
curses
cuuute
ddlc
decisions
describes
detailed
detective
disney
dj
dr
drowning
easter
elves
embodiment
emeralds
empire
eve
evolve
explosive
failing
false
feedback
flesh
flight
flowing
fond
frost
frozen
gambling
garbage
generation
george
goddamn
goooooooo
grapes
groove
guns
harmony
harry
heartbeats
hokkaido
holohouse
hurting
incoming
industry
infinity
insect
instinct
instructions
interests
interface
introduce
jackbox
jank
kanji
kebbie
kfp
kirinco
kirins
laid
lasted
latter
leaderboard
legal
lemons
lewd
lock
logo
lowlands
luckily
mainly
male
mask
mechanic
media
mentally
mentions
mere
method
mirror
muted
nerissa
ntr
nurse
oatmeal
obs
occasion
offline
ohh
orders
origin
outstanding
owo
pan
patter
placement
plushie
png
possessed
providing
proximity
pudding
reasonable
recall
reddit
refreshed
refuse
relief
remembering
replies
require
respectfully
revealed
rice
ritual
ro
safety
sale
satisfaction
scaffolding
scp
semi
severe
shaders
sharks
sharp
shelter
shoes
shoutout
sims
smells
sorted
soy
soyo
spine
sprigatito
squeeze
stable
stacking
stats
storyline
stranger
stream💚
street
structure
struggles
subjects
subscribe
switching
tab
tako
targets
teammates
terrain
throat
toe
toradora
unbelievably
underrated
vacuum
valentines
vampires
veggies
velvet
vibing
vn
wasted
welcomed
west
whoa
whom
woof
writer
xdd
xp
yooo
zoe
┗1
┣28
┣31
┣34
┣38
┣57
👏👏👏
##!
##"
###
##$
##%
##&
##'
##(
##)
##*
##+
##,
##-
##.
##/
##:
##;
##<
##=
##>
##?
##@
##[
##\
##]
##^
##_
##`
##{
##|
##}
##~
##¡
##¬
##°
##¶
##·
##¿
##×
##÷
##ø
##đ
##ɢ
##ɪ
##ɴ
##ʀ
##ʔ
##ʕ
##ʖ
##ʘ
##ʙ
##ʜ
##ʟ
##˄
##ˇ
##ˈ
##ˉ
##ˊ
##ˋ
##ι
##ο
##σ
##ω
##б
##в
##г
##д
##ж
##з
##к
##л
##н
##п
##р
##с
##ф
##х
##ц
##ч
##ш
##ы
##э
##ю
##و
##٩
##۶
##இ
##ಥ
##ก
##ค
##ฅ
##ง
##ด
##น
##พ
##ร
##ว
##ส
##ะ
##า
##เ
##๑
##๓
##༼
##༽
##ᄀ
##ᄁ
##ᄂ
##ᄃ
##ᄄ
##ᄅ
##ᄆ
##ᄇ
##ᄈ
##ᄉ
##ᄊ
##ᄋ
##ᄌ
##ᄍ
##ᄎ
##ᄏ
##ᄐ
##ᄑ
##ᄒ
##ᅢ
##ᅣ
##ᅧ
##ᅨ
##ᅪ
##ᅫ
##ᅬ
##ᅭ
##ᅯ
##ᅱ
##ᅲ
##ᅳ
##ᅴ
##ᆨ
##ᆩ
##ᆮ
##ᆰ
##ᆸ
##ᆹ
##ᆺ
##ᆻ
##ᆽ
##ᇀ
##ᇁ
##ᇂ
##ᐪ
##ᴀ
##ᴄ
##ᴅ
##ᴇ
##ᴋ
##ᴍ
##ᴏ
##ᴖ
##ᴗ
##ᴛ
##ᴜ
##ᴩ
##–
##—
##‘
##’
##“
##”
##„
##†
##•
## 
##※
##‿
##€
##⃣
##←
##→
##↓
##↗
##↘
##↳
##∀
##∇
##∩
##⊃
##⋅
##⌛
##⌯
##⏳
##┌
##└
##┗
##├
##┣
##╥
##╯
##╰
##╹
##▶
##▽
##○
##◍
##●
##◕
##◜
##◝
##◡
##◦
##☀
##☁
##☄
##☆
##☉
##☔
##☕
##☝
##☞
##☠
##☮
##☹
##☺
##☻
##♀
##♂
##♄
##♉
##♊
##♍
##♑
##♡
##♥
##♫
##♰
##⚓
##⚠
##⚡
##⚫
##⛵
##✅
##✊
##✋
##✌
##✖
##✧
##✿
##❀
##❁
##❄
##❇
##❓
##❗
##❛
##⬆
##⬇
##⭐
##⸒
##、
##。
##〃
##々
##〇
##〉
##「
##」
##【
##】
##〒
##〜
##ぁ
##あ
##ぇ
##え
##お
##き
##け
##こ
##さ
##せ
##そ
##ち
##っ
##つ
##ひ
##ふ
##へ
##ほ
##ま
##み
##む
##め
##ゃ
##や
##ゅ
##ゆ
##ょ
##れ
##ろ
##わ
##ァ
##ア
##ィ
##イ
##ウ
##ェ
##エ
##オ
##カ
##キ
##ク
##ケ
##コ
##サ
##シ
##ス
##セ
##ソ
##タ
##チ
##ッ
##ツ
##テ
##ト
##ナ
##ニ
##ネ
##ノ
##ハ
##ヒ
##フ
##ヘ
##ホ
##マ
##ミ
##ム
##メ
##モ
##ャ
##ヤ
##ュ
##ョ
##ラ
##リ
##ル
##レ
##ロ
##ヮ
##ワ
##ン
##・
##ー
##ヽ
##一
##万
##丈
##上
##下
##不
##与
##中
##主
##了
##事
##二
##人
##今
##仕
##他
##付
##以
##会
##伝
##体
##何
##作
##你
##使
##來
##係
##信
##個
##優
##元
##先
##光
##入
##全
##共
##凸
##出
##分
##切
##初
##利
##到
##力
##加
##助
##勉
##動
##化
##千
##参
##反
##取
##受
##可
##合
##同
##向
##君
##告
##周
##味
##唄
##回
##団
##囲
##在
##地
##場
##境
##増
##声
##変
##外
##多
##大
##天
##夫
##失
##奏
##好
##姉
##始
##婆
##子
##守
##定
##実
##対
##射
##專
##小
##展
##差
##己
##帯
##帰
##常
##年
##広
##底
##度
##引
##張
##強
##形
##影
##後
##心
##必
##応
##思
##性
##悪
##情
##想
##意
##愛
##感
##成
##我
##截
##所
##手
##才
##持
##指
##掘
##教
##数
##文
##新
##日
##星
##時
##景
##晴
##曲
##最
##月
##有
##服
##望
##朝
##木
##未
##本
##来
##果
##根
##格
##棍
##業
##楽
##構
##様
##機
##次
##欲
##歌
##正
##残
##気
##求
##江
##注
##活
##満
##演
##澤
##火
##炸
##点
##無
##然
##物
##特
##狀
##独
##現
##理
##環
##生
##用
##由
##町
##疲
##癒
##発
##發
##白
##的
##皮
##目
##直
##眠
##知
##礼
##社
##神
##私
##立
##笑
##箱
##素
##細
##終
##組
##結
##絵
##織
##繰
##美
##考
##耳
##聞
##聴
##能
##自
##良
##色
##花
##苦
##英
##草
##菜
##葉
##行
##衣
##表
##装
##要
##見
##覚
##観
##解
##言
##訳
##話
##語
##謝
##識
##議
##負
##財
##資
##質
##起
##越
##身
##込
##近
##返
##這
##通
##進
##過
##達
##違
##適
##部
##配
##野
##量
##金
##長
##開
##間
##関
##限
##隠
##集
##雙
##難
##雰
##面
##音
##響
##頑
##香
##験
##驚
##高
##髪
##齎
##ꈍ
##꒳
##ꚛ
##ꜰ
##ꜱ
##￼
##🅰
##🅱
##🅲
##🅴
##🅸
##🅼
##🅽
##🅾
##🅿
##🆁
##🆂
##🆃
##🆄
##🇪
##🇸
##🌁
##🌅
##🌈
##🌝
##🌟
##🌫
##🌲
##🌳
##🌴
##🌸
##🌹
##🌺
##🌻
##🌼
##🍁
##🍂
##🍃
##🍄
##🍊
##🍋
##🍌
##🍏
##🍔
##🍪
##🍵
##🍷
##🎀
##🎂
##🎃
##🎄
##🎆
##🎇
##🎈
##🎊
##🎤
##🎩
##🎮
##🎵
##🎶
##🎷
##🎸
##🎹
##🎺
##🎻
##🎼
##🏃
##🏆
##🏭
##🏵
##🏼
##🏽
##🏾
##🏿
##🐀
##🐈
##🐌
##🐍
##🐏
##🐐
##🐑
##🐒
##🐗
##🐘
##🐝
##🐟
##🐢
##🐮
##🐰
##🐱
##🐲
##🐴
##🐸
##🐺
##🐾
##👀
##👂
##👄
##👆
##👈
##👉
##👋
##👑
##👨
##👻
##👽
##💃
##💋
##💎
##💐
##💓
##💔
##💗
##💘
##💝
##💞
##💤
##💥
##💦
##💨
##💪
##💫
##💯
##💰
##📈
##📱
##📷
##📸
##🔧
##🔨
##🔫
##🔱
##🕊
##🕷
##🖤
##🗡
##🗣
##🗨
##🗿
##😀
##😁
##😃
##😄
##😇
##😈
##😉
##😋
##😌
##😏
##😐
##😑
##😔
##😖
##😘
##😞
##😟
##😡
##😢
##😣
##😤
##😥
##😦
##😨
##😩
##😪
##😫
##😬
##😮
##😰
##😱
##😲
##😴
##😵
##😶
##😷
##😸
##😹
##😺
##😻
##😼
##🙂
##🙃
##🙇
##🙈
##🙌
##🚗
##🛐
##🟠
##🤌
##🤍
##🤏
##🤓
##🤔
##🤗
##🤘
##🤙
##🤝
##🤟
##🤡
##🤢
##🤤
##🤧
##🤨
##🤩
##🤪
##🤬
##🤭
##🤷
##🥁
##🥂
##🥕
##🥥
##🥦
##🥪
##🥱
##🥲
##🥳
##🥴
##🥵
##🥶
##🥹
##🦀
##🦈
##🦉
##🦌
##🦍
##🦒
##🦖
##🧐
##🧠
##🧡
##🪕
##🪗
##🪘
##🪳
##🪶
##🫡
##🫢
##🫵
##🫶
